DEPTH=25;			--The size of data in bits
WIDTH=8;			--The size of memory in words
ADDRESS_RADIX=HEX;	--The radian for address values
DATA_RADIX=HEX;		--The radian for data values
CONTENT				--start of (address: data pairs)
BEGIN
000: e8;
001: ed;
002: 2a;
003: 1c;
004: 0b;
005: ec;
006: 0a;
007: 25;
008: 42;
009: 01;
00A: 09;
00B: 23;
00C: 35;
00D: 0d;
00E: 1a;
00F: 34;
010: 38;
011: 2f;
012: f9;
013: 07;
014: 34;
015: 47;
016: 12;
017: ff;
018: 16;
END;
