DEPTH=25;			--The size of data in bits
WIDTH=8;			--The size of memory in words
ADDRESS_RADIX=HEX;	--The radian for address values
DATA_RADIX=HEX;		--The radian for data values
CONTENT				--start of (address: data pairs)
BEGIN
000: f4;
001: c6;
002: c1;
003: ba;
004: c8;
005: 05;
006: e4;
007: bf;
008: da;
009: c5;
00A: 26;
00B: 05;
00C: 32;
00D: 02;
00E: 06;
00F: 2a;
010: 3a;
011: 1b;
012: 1b;
013: 22;
014: 33;
015: 3d;
016: 25;
017: 0b;
018: 1b;
END;
