DEPTH=25;			--The size of data in bits
WIDTH=8;			--The size of memory in words
ADDRESS_RADIX=HEX;	--The radian for address values
DATA_RADIX=HEX;		--The radian for data values
CONTENT				--start of (address: data pairs)
BEGIN
000: e2;
001: fa;
002: ee;
003: e6;
004: d4;
005: f1;
006: 10;
007: 10;
008: 0a;
009: e2;
00A: de;
00B: d3;
00C: d7;
00D: f0;
00E: 14;
00F: dd;
010: cf;
011: c5;
012: ee;
013: f3;
014: 02;
015: 10;
016: ce;
017: ef;
018: ed;
END;
