11110101
00001001
00101111
00111011
00111110
11110011
10011101
00000000
00001011
00000000
11100001
11100100
11000011
11100000
11011000
11001000
11110010
00000000
11000010
00000000
11110011
00001111
11100011
11001100
00000101
11101001
00011000
00000000
11111110
00000000
11101100
00000000
00010011
00010010
10000001
11100001
10001011
00000000
11111010
00000000
00001000
10111010
11100001
11000011
00000100
00001100
10111011
00000000
10111011
00000000
00010001
11011101
00001110
11010111
11111001
00001100
00100010
00000000
00000101
00000000
00100101
10001010
00011100
11111010
10010111
11111000
10110100
00000000
11110011
00000000
11111010
00100101
11100001
11110110
10101110
11110010
11100100
00000000
11010011
00000000
00011110
01110100
11100000
00000111
00100000
11011110
00001001
00000000
11111100
00000000
11011111
10101000
11100010
11010010
10110100
01100100
01011111
00000000
11111101
00000000
00100100
11011111
00001110
11010011
11011101
11011110
11011010
00000000
00000011
00000000
11111100
00110100
11011010
11111101
01001001
00001101
11110100
00000000
11101111
00000000
10101101
00100011
00110011
00100010
11101000
00010111
10110001
00000000
00111111
00000000
00000001
00101010
01010110
11100111
11111100
11110100
11111111
00000000
11101001
00000000
00110111
11110101
11010111
11110010
00100111
00001000
00100010
00000000
00100000
00000000
11000110
11011001
11110001
11110000
11111101
11000001
10011110
00000000
11110101
00000000
00101101
11110001
00100111
11110011
00010001
00010000
00101100
00000000
00010111
00000000
00010011
00010010
00010100
00111011
00100001
11111000
00000110
00000000
11011000
00000000
11101011
10100000
11011010
00000110
11010111
00001010
00000000
00000000
11111110
00000000
11111111
00111111
11101001
11101000
10111000
00110011
01001100
00000000
00001001
00000000
11010111
11101001
11011011
00010101
00000110
11001000
11111011
00000000
00000011
00000000
00010000
00100101
11011010
00110000
11110110
01011011
00111110
00000000
00110101
00000000
00001001
00001111
11101001
10111101
00011111
00011010
00111001
00000000
11001010
00000000
11000011
10110101
11111110
11101010
00101100
10000101
10101101
00000000
00001000
00000000
11100001
11110111
11000111
11111011
00110100
00011000
10111110
00000000
11111110
00000000
11011010
01001010
00011111
00011010
00011011
11110100
11011000
00000000
11110001
00000000
00001100
00000001
01011110
11100111
00000111
00001100
00000100
00000000
00101111
00000000
10011111
11011001
10111101
00101110
11110101
00110011
11000101
00000000
11101010
00000000
00000111
10110100
11111010
11011101
00011110
00010001
00011100
00000000
11110011
00000000
00000111
00000001
00011010
11111010
11000011
00001010
00011101
00000000
01000110
00000000
11100110
10010100
11110100
00110001
00000010
00000010
00000010
00000000
11111111
00000000
00100011
00110100
00011010
00011100
00101111
00000111
01000100
00000000
00101011
00000000
11000111
00100111
00011010
11001000
00100010
11100011
11001101
00000000
11010100
00000000
11111000
00010100
00100111
11111110
00110110
11111000
00000101
00000000
00110010
00000000
11101001
00011011
11111000
00001101
00110011
00101101
00001000
00000000
00011111
00000000
01000111
11010000
11101101
11100111
00000111
11000011
00010100
00000000
11110111
00000000
00110010
11100011
11101010
11101110
11101011
00011111
00111100
00000000
00011100
00000000
00010001
01110001
00010001
01011111
11011011
01000000
11010010
00000000
10111100
00000000
00100110
00100110
11101110
00001010
00001110
00001011
00011000
00000000
01000100
00000000
11101111
11011001
00001111
01000001
11100110
00010000
11111100
00000000
11001000
00000000
01100101
11100011
00011101
00000100
00100001
00111011
01011001
00000000
00000110
00000000
11101111
00010101
00011001
00100101
00000001
00001010
00001111
00000000
00010101
00000000
00001001
00011010
00010101
11111101
11111001
00000001
00011001
00000000
00000011
00000000
00001100
00111001
00011110
00010110
00000000
00000000
00001101
00000000
00011110
00000000
11110010
11001000
11011111
00010100
11101001
00110000
00001100
00000000
11111101
00000000
00100111
00101011
01011101
00010111
11111000
11110101
00101001
00000000
11010101
00000000
10111000
00111110
01010101
11111101
00111111
00001101
11111011
00000000
01000101
00000000
01000011
00100101
00010001
00111010
11101001
00101111
01000110
00000000
00101110
00000000
