f5
09
2f
3b
3e
f3
9d
00
0b
00
e1
e4
c3
e0
d8
c8
f2
00
c2
00
f3
0f
e3
cc
05
e9
18
00
fe
00
ec
00
13
12
81
e1
8b
00
fa
00
08
ba
e1
c3
04
0c
bb
00
bb
00
11
dd
0e
d7
f9
0c
22
00
05
00
25
8a
1c
fa
97
f8
b4
00
f3
00
fa
25
e1
f6
ae
f2
e4
00
d3
00
1e
74
e0
07
20
de
09
00
fc
00
df
a8
e2
d2
b4
64
5f
00
fd
00
24
df
0e
d3
dd
de
da
00
03
00
fc
34
da
fd
49
0d
f4
00
ef
00
ad
23
33
22
e8
17
b1
00
3f
00
01
2a
56
e7
fc
f4
ff
00
e9
00
37
f5
d7
f2
27
08
22
00
20
00
c6
d9
f1
f0
fd
c1
9e
00
f5
00
2d
f1
27
f3
11
10
2c
00
17
00
13
12
14
3b
21
f8
06
00
d8
00
eb
a0
da
06
d7
0a
00
00
fe
00
ff
3f
e9
e8
b8
33
4c
00
09
00
d7
e9
db
15
06
c8
fb
00
03
00
10
25
da
30
f6
5b
3e
00
35
00
09
0f
e9
bd
1f
1a
39
00
ca
00
c3
b5
fe
ea
2c
85
ad
00
08
00
e1
f7
c7
fb
34
18
be
00
fe
00
da
4a
1f
1a
1b
f4
d8
00
f1
00
0c
01
5e
e7
07
0c
04
00
2f
00
9f
d9
bd
2e
f5
33
c5
00
ea
00
07
b4
fa
dd
1e
11
1c
00
f3
00
07
01
1a
fa
c3
0a
1d
00
46
00
e6
94
f4
31
02
02
02
00
ff
00
23
34
1a
1c
2f
07
44
00
2b
00
c7
27
1a
c8
22
e3
cd
00
d4
00
f8
14
27
fe
36
f8
05
00
32
00
e9
1b
f8
0d
33
2d
08
00
1f
00
47
d0
ed
e7
07
c3
14
00
f7
00
32
e3
ea
ee
eb
1f
3c
00
1c
00
11
71
11
5f
db
40
d2
00
bc
00
26
26
ee
0a
0e
0b
18
00
44
00
ef
d9
0f
41
e6
10
fc
00
c8
00
65
e3
1d
04
21
3b
59
00
06
00
ef
15
19
25
01
0a
0f
00
15
00
09
1a
15
fd
f9
01
19
00
03
00
0c
39
1e
16
00
00
0d
00
1e
00
f2
c8
df
14
e9
30
0c
00
fd
00
27
2b
5d
17
f8
f5
29
00
d5
00
b8
3e
55
fd
3f
0d
fb
00
45
00
43
25
11
3a
e9
2f
46
00
2e
00
